
// This is a TensorFlow Lite model file that has been converted into a C data
// array using the tensorflow.lite.util.convert_bytes_to_c_source() function.
// This form is useful for compiling into a binary for devices that don't have a
// file system.

#include "sine_model.h"

// We need to keep the data array aligned on some architectures.
#ifdef __has_attribute
#define HAVE_ATTRIBUTE(x) __has_attribute(x)
#else
#define HAVE_ATTRIBUTE(x) 0
#endif
#if HAVE_ATTRIBUTE(aligned) || (defined(__GNUC__) && !defined(__clang__))
#define DATA_ALIGN_ATTRIBUTE __attribute__((aligned(4)))
#else
#define DATA_ALIGN_ATTRIBUTE
#endif

const unsigned char sine_model[] DATA_ALIGN_ATTRIBUTE = {
    0x1c, 0x00, 0x00, 0x00, 0x54, 0x46, 0x4c, 0x33, 0x14, 0x00, 0x20, 0x00, 0x1c,
    0x00, 0x18, 0x00, 0x14, 0x00, 0x10, 0x00, 0x0c, 0x00, 0x00, 0x00, 0x08, 0x00,
    0x04, 0x00, 0x14, 0x00, 0x00, 0x00, 0x1c, 0x00, 0x00, 0x00, 0x90, 0x00, 0x00,
    0x00, 0xe8, 0x00, 0x00, 0x00, 0x04, 0x07, 0x00, 0x00, 0x14, 0x07, 0x00, 0x00,
    0x0c, 0x0c, 0x00, 0x00, 0x03, 0x00, 0x00, 0x00, 0x01, 0x00, 0x00, 0x00, 0x10,
    0x00, 0x00, 0x00, 0x00, 0x00, 0x0a, 0x00, 0x10, 0x00, 0x0c, 0x00, 0x08, 0x00,
    0x04, 0x00, 0x0a, 0x00, 0x00, 0x00, 0x0c, 0x00, 0x00, 0x00, 0x1c, 0x00, 0x00,
    0x00, 0x38, 0x00, 0x00, 0x00, 0x0f, 0x00, 0x00, 0x00, 0x73, 0x65, 0x72, 0x76,
    0x69, 0x6e, 0x67, 0x5f, 0x64, 0x65, 0x66, 0x61, 0x75, 0x6c, 0x74, 0x00, 0x01,
    0x00, 0x00, 0x00, 0x04, 0x00, 0x00, 0x00, 0x98, 0xff, 0xff, 0xff, 0x09, 0x00,
    0x00, 0x00, 0x04, 0x00, 0x00, 0x00, 0x07, 0x00, 0x00, 0x00, 0x64, 0x65, 0x6e,
    0x73, 0x65, 0x5f, 0x32, 0x00, 0x01, 0x00, 0x00, 0x00, 0x04, 0x00, 0x00, 0x00,
    0xc6, 0xf9, 0xff, 0xff, 0x04, 0x00, 0x00, 0x00, 0x0b, 0x00, 0x00, 0x00, 0x64,
    0x65, 0x6e, 0x73, 0x65, 0x5f, 0x69, 0x6e, 0x70, 0x75, 0x74, 0x00, 0x02, 0x00,
    0x00, 0x00, 0x34, 0x00, 0x00, 0x00, 0x04, 0x00, 0x00, 0x00, 0xdc, 0xff, 0xff,
    0xff, 0x0c, 0x00, 0x00, 0x00, 0x04, 0x00, 0x00, 0x00, 0x13, 0x00, 0x00, 0x00,
    0x43, 0x4f, 0x4e, 0x56, 0x45, 0x52, 0x53, 0x49, 0x4f, 0x4e, 0x5f, 0x4d, 0x45,
    0x54, 0x41, 0x44, 0x41, 0x54, 0x41, 0x00, 0x08, 0x00, 0x0c, 0x00, 0x08, 0x00,
    0x04, 0x00, 0x08, 0x00, 0x00, 0x00, 0x0b, 0x00, 0x00, 0x00, 0x04, 0x00, 0x00,
    0x00, 0x13, 0x00, 0x00, 0x00, 0x6d, 0x69, 0x6e, 0x5f, 0x72, 0x75, 0x6e, 0x74,
    0x69, 0x6d, 0x65, 0x5f, 0x76, 0x65, 0x72, 0x73, 0x69, 0x6f, 0x6e, 0x00, 0x0d,
    0x00, 0x00, 0x00, 0x18, 0x06, 0x00, 0x00, 0x10, 0x06, 0x00, 0x00, 0xc0, 0x05,
    0x00, 0x00, 0xa4, 0x05, 0x00, 0x00, 0x54, 0x05, 0x00, 0x00, 0x04, 0x05, 0x00,
    0x00, 0xf4, 0x00, 0x00, 0x00, 0xa4, 0x00, 0x00, 0x00, 0x9c, 0x00, 0x00, 0x00,
    0x94, 0x00, 0x00, 0x00, 0x8c, 0x00, 0x00, 0x00, 0x6c, 0x00, 0x00, 0x00, 0x04,
    0x00, 0x00, 0x00, 0x72, 0xfa, 0xff, 0xff, 0x04, 0x00, 0x00, 0x00, 0x58, 0x00,
    0x00, 0x00, 0x0c, 0x00, 0x00, 0x00, 0x08, 0x00, 0x0e, 0x00, 0x08, 0x00, 0x04,
    0x00, 0x08, 0x00, 0x00, 0x00, 0x10, 0x00, 0x00, 0x00, 0x28, 0x00, 0x00, 0x00,
    0x00, 0x00, 0x06, 0x00, 0x08, 0x00, 0x04, 0x00, 0x06, 0x00, 0x00, 0x00, 0x04,
    0x00, 0x00, 0x00, 0x01, 0x00, 0x00, 0x00, 0xea, 0x03, 0x00, 0x00, 0x00, 0x00,
    0x0a, 0x00, 0x10, 0x00, 0x0c, 0x00, 0x08, 0x00, 0x04, 0x00, 0x0a, 0x00, 0x00,
    0x00, 0x02, 0x00, 0x00, 0x00, 0x02, 0x00, 0x00, 0x00, 0x04, 0x00, 0x00, 0x00,
    0x06, 0x00, 0x00, 0x00, 0x32, 0x2e, 0x31, 0x35, 0x2e, 0x30, 0x00, 0x00, 0xd6,
    0xfa, 0xff, 0xff, 0x04, 0x00, 0x00, 0x00, 0x10, 0x00, 0x00, 0x00, 0x31, 0x2e,
    0x35, 0x2e, 0x30, 0x00, 0x00, 0x00, 0x00, 0x00, 0x00, 0x00, 0x00, 0x00, 0x00,
    0x00, 0xc0, 0xf5, 0xff, 0xff, 0xc4, 0xf5, 0xff, 0xff, 0xc8, 0xf5, 0xff, 0xff,
    0xfe, 0xfa, 0xff, 0xff, 0x04, 0x00, 0x00, 0x00, 0x40, 0x00, 0x00, 0x00, 0x63,
    0x1c, 0x79, 0xbf, 0x4b, 0x5b, 0x50, 0xbe, 0x01, 0x7a, 0x1d, 0x3f, 0x9b, 0x15,
    0x00, 0xbf, 0xd6, 0x50, 0xe5, 0x3f, 0x96, 0xed, 0x02, 0xbf, 0xfd, 0x5a, 0xd0,
    0x3f, 0x46, 0x4a, 0x00, 0xbf, 0xbf, 0xbe, 0xa5, 0x3e, 0x66, 0x4f, 0x94, 0x3e,
    0x6e, 0x58, 0xcf, 0x3e, 0x9a, 0xc3, 0x1c, 0x3f, 0x6f, 0xfe, 0x99, 0xbf, 0xb3,
    0xa9, 0xa0, 0xbe, 0x0c, 0x61, 0xb7, 0xbe, 0x11, 0xe3, 0xe4, 0x3e, 0x4a, 0xfb,
    0xff, 0xff, 0x04, 0x00, 0x00, 0x00, 0x00, 0x04, 0x00, 0x00, 0x10, 0xa2, 0x5b,
    0x3d, 0xd0, 0x69, 0x65, 0x3f, 0x5a, 0xf8, 0x58, 0xbe, 0x73, 0xa1, 0xd8, 0x3e,
    0xd0, 0xaf, 0x9d, 0xbe, 0xf3, 0xe0, 0xcf, 0xbe, 0x74, 0x2b, 0x0b, 0xbf, 0x81,
    0xcd, 0xfc, 0xbe, 0x70, 0xbb, 0x7b, 0xbe, 0x9f, 0x3f, 0x97, 0xbe, 0xae, 0x04,
    0x74, 0x3e, 0xa6, 0xee, 0xb5, 0xbe, 0x47, 0xa9, 0xae, 0x3c, 0x58, 0x01, 0x35,
    0x3d, 0xbb, 0xb2, 0x44, 0xbf, 0x43, 0x99, 0xcf, 0x3e, 0x15, 0xe2, 0x51, 0xbe,
    0xa4, 0xd7, 0xa3, 0x3e, 0x6f, 0x96, 0x85, 0x3e, 0xfe, 0x7e, 0x60, 0x3e, 0xb1,
    0x6b, 0xce, 0x3e, 0xc2, 0xd0, 0x2b, 0x3e, 0x8b, 0x07, 0x66, 0x3d, 0x53, 0x6c,
    0x9d, 0xbe, 0x5c, 0xa2, 0xe0, 0x3d, 0x39, 0x14, 0x2c, 0xbe, 0x7b, 0x86, 0xda,
    0xbe, 0xe4, 0xbf, 0xbb, 0x3e, 0x6f, 0x3e, 0xb6, 0x3e, 0xaf, 0x09, 0x93, 0x3e,
    0x5d, 0x36, 0x40, 0x3e, 0x60, 0x54, 0x01, 0xbd, 0xd5, 0xac, 0xa2, 0xbe, 0x10,
    0x3c, 0x1d, 0xbd, 0xbe, 0xcc, 0x4c, 0x3e, 0xae, 0x61, 0x59, 0x3e, 0xdd, 0xeb,
    0x6d, 0xbe, 0xa0, 0x1e, 0xd6, 0xbc, 0xd9, 0xfc, 0x91, 0xbe, 0xb3, 0x8e, 0x1b,
    0xbe, 0xd2, 0xa4, 0xc1, 0xbe, 0x7c, 0x1b, 0x80, 0x3e, 0x0c, 0xa2, 0x10, 0xbe,
    0x8d, 0xe6, 0x76, 0x3e, 0xf2, 0x51, 0xd1, 0x3e, 0x90, 0xe6, 0x2b, 0xbe, 0xb6,
    0xb2, 0x8b, 0xbe, 0xd8, 0x23, 0x2d, 0xbd, 0x00, 0xd8, 0x8e, 0x39, 0xa2, 0x53,
    0x26, 0x3f, 0xcc, 0xd9, 0xbe, 0x3d, 0x40, 0xfc, 0x4b, 0xbd, 0x4c, 0xfd, 0xac,
    0xbd, 0x86, 0x9c, 0x24, 0x3e, 0x77, 0x46, 0x16, 0xbc, 0x39, 0xd0, 0x82, 0xbe,
    0x95, 0x79, 0x8f, 0x3e, 0x80, 0xf0, 0x29, 0x3e, 0x20, 0xfa, 0x35, 0xbc, 0x38,
    0x29, 0x8a, 0x3e, 0x1e, 0x30, 0x73, 0x3e, 0x50, 0x83, 0x5c, 0x3d, 0xf0, 0x7b,
    0xa3, 0xbd, 0x66, 0x0a, 0xc9, 0xbe, 0x84, 0x5a, 0xd0, 0x3d, 0x06, 0x95, 0x7f,
    0x3f, 0x34, 0xfc, 0xb8, 0x3d, 0xe1, 0x74, 0xb4, 0x3e, 0x4e, 0x0f, 0x0a, 0xbe,
    0xf1, 0x0b, 0xc9, 0xbe, 0x0f, 0xd8, 0x5c, 0x3e, 0xa4, 0x9b, 0x0f, 0xbe, 0x3b,
    0x60, 0x97, 0x3e, 0x10, 0x45, 0x84, 0xbe, 0xa3, 0x36, 0x6b, 0xbe, 0x0e, 0x3f,
    0x92, 0xbe, 0x6d, 0xc2, 0x0b, 0xbf, 0xd5, 0xfa, 0xd6, 0xbe, 0x8d, 0xbe, 0x8f,
    0x3d, 0x96, 0xb8, 0x07, 0xbe, 0x52, 0xc3, 0xc6, 0xbe, 0x45, 0xb0, 0x53, 0xbe,
    0x20, 0x76, 0x13, 0xbe, 0x9a, 0x2c, 0x54, 0x3e, 0x87, 0x7d, 0xc1, 0xbe, 0x12,
    0x71, 0x1f, 0x3e, 0xc3, 0x67, 0x92, 0x3a, 0xee, 0x28, 0x46, 0x3e, 0x23, 0x09,
    0x82, 0x3e, 0x09, 0x23, 0x92, 0x3e, 0x49, 0x20, 0xa8, 0xbe, 0xad, 0x30, 0x79,
    0xbe, 0x16, 0xf6, 0xcf, 0xbe, 0x26, 0x92, 0x4f, 0x3e, 0xc0, 0x93, 0xb2, 0x3c,
    0x3b, 0x25, 0x8f, 0x3e, 0x45, 0xf7, 0xc4, 0x3e, 0x51, 0x2d, 0x40, 0xbf, 0x7a,
    0xf6, 0x35, 0xbe, 0x80, 0xcd, 0xf8, 0xbb, 0xd1, 0xb7, 0xac, 0x3e, 0x93, 0x52,
    0xc8, 0xbe, 0x68, 0x22, 0xe5, 0xba, 0x84, 0x83, 0x77, 0xbe, 0xae, 0x37, 0x2f,
    0x3e, 0x08, 0x03, 0x5f, 0xbe, 0x70, 0xe2, 0x8f, 0x3c, 0xc5, 0xa9, 0xaf, 0x3d,
    0xb4, 0xd2, 0x15, 0x3f, 0xc5, 0xb4, 0x4f, 0xbe, 0x24, 0x57, 0xcc, 0x3e, 0xe8,
    0xbc, 0xad, 0xbd, 0x05, 0xd1, 0xc9, 0x3e, 0x4b, 0x66, 0xe8, 0xbd, 0x60, 0x83,
    0xce, 0xbc, 0x6b, 0x0f, 0xd0, 0xbe, 0x27, 0xeb, 0x84, 0xbe, 0x70, 0x33, 0x2e,
    0xbe, 0xb1, 0x33, 0x71, 0xbe, 0x24, 0xf2, 0x65, 0x3e, 0xd0, 0x40, 0x13, 0xbe,
    0xfe, 0x8f, 0xc2, 0x3e, 0x80, 0xb0, 0x65, 0xbc, 0x0f, 0x45, 0x98, 0x3e, 0xd5,
    0xb5, 0xbe, 0x3e, 0x58, 0x01, 0xc7, 0xbd, 0xac, 0xe9, 0xfb, 0xbd, 0x80, 0x84,
    0xa5, 0xbe, 0x28, 0x32, 0x68, 0xbd, 0x23, 0x9a, 0x16, 0xbe, 0xa6, 0x19, 0x88,
    0xbe, 0x50, 0x86, 0x30, 0xbe, 0xc7, 0xc5, 0xc4, 0x3e, 0x41, 0x2a, 0xc9, 0xbe,
    0x8f, 0x21, 0xed, 0xbe, 0xfa, 0x46, 0xbb, 0x3e, 0x80, 0x49, 0x51, 0xbb, 0x0a,
    0x7f, 0x49, 0xbc, 0x1b, 0x1b, 0x45, 0xbe, 0x12, 0x8d, 0x95, 0x3e, 0x0b, 0xe4,
    0xc9, 0xbe, 0xc0, 0x0c, 0xce, 0xbc, 0xca, 0xe9, 0xaf, 0x3e, 0x6a, 0x69, 0x16,
    0x3e, 0x20, 0x81, 0x29, 0xbc, 0x4c, 0x6b, 0xeb, 0xbd, 0xbd, 0x88, 0xc0, 0x3e,
    0xd1, 0xbe, 0xc6, 0xbe, 0x28, 0xe6, 0x62, 0xbd, 0x82, 0x7d, 0x62, 0xbe, 0xf4,
    0xa9, 0x96, 0xbd, 0xf4, 0xcf, 0xf5, 0x3d, 0x24, 0xeb, 0xdc, 0xbd, 0x20, 0x3b,
    0xa9, 0x3c, 0x1a, 0xbc, 0xa5, 0xbe, 0xc6, 0x05, 0x2f, 0xbe, 0x04, 0x88, 0x9e,
    0x3d, 0xd7, 0x08, 0xd3, 0x3e, 0xad, 0x7e, 0xac, 0xbe, 0x75, 0x56, 0x7c, 0xbe,
    0x9e, 0xaf, 0x51, 0x3e, 0x13, 0x0c, 0xa0, 0xbe, 0x00, 0xbe, 0xd2, 0x3b, 0x98,
    0xcb, 0x59, 0x3d, 0x57, 0x13, 0x6c, 0xbe, 0xc9, 0x49, 0xd9, 0xbe, 0xe1, 0xc9,
    0x89, 0xbe, 0xd0, 0xc0, 0x9b, 0x3e, 0x8f, 0x34, 0xb6, 0x3e, 0xa9, 0x20, 0xb2,
    0x3e, 0x66, 0xc6, 0x0a, 0x3e, 0x11, 0x26, 0x94, 0x3e, 0xf0, 0x01, 0xb5, 0x3d,
    0x71, 0x81, 0x5e, 0xbe, 0x42, 0x7c, 0xd1, 0x3d, 0x99, 0x8d, 0xb6, 0xbe, 0x5a,
    0xb4, 0xa1, 0xbe, 0x5a, 0xdd, 0x5a, 0xbe, 0x40, 0x4a, 0xda, 0xbc, 0x3e, 0x50,
    0x8e, 0xbe, 0x86, 0xc9, 0x42, 0xbe, 0xd0, 0x51, 0x71, 0x3d, 0xc0, 0x72, 0x52,
    0xbe, 0x46, 0x3a, 0x58, 0xbe, 0x9c, 0x9b, 0xa0, 0xbe, 0x36, 0xd5, 0xd3, 0x3e,
    0x94, 0xed, 0xed, 0x3d, 0xe6, 0x51, 0xc2, 0x3e, 0x84, 0x40, 0x1f, 0x3e, 0xe2,
    0x1d, 0x01, 0x3e, 0x17, 0xc1, 0x48, 0xbd, 0x00, 0xc0, 0xfd, 0xb7, 0xa4, 0xe5,
    0xe6, 0xbd, 0x00, 0x9b, 0x16, 0x3f, 0xc5, 0x16, 0x7d, 0xbe, 0x41, 0x5f, 0xb1,
    0xbe, 0x6d, 0x59, 0x49, 0xbe, 0x1b, 0x69, 0x8d, 0x3e, 0xc7, 0xa3, 0x1f, 0xbc,
    0xc3, 0x18, 0x26, 0xbf, 0x86, 0xd5, 0x31, 0xbe, 0x0b, 0x57, 0xaf, 0xbe, 0xad,
    0x55, 0xa9, 0x3e, 0x51, 0xcd, 0x51, 0xbd, 0x38, 0x98, 0x0d, 0xbe, 0xd9, 0x5c,
    0xc4, 0x3e, 0x59, 0x89, 0xaa, 0xbe, 0xc3, 0x01, 0x8c, 0x3e, 0x40, 0xe6, 0x51,
    0x3c, 0x70, 0xc9, 0xf8, 0xbc, 0x9d, 0xca, 0xcb, 0xbe, 0xe1, 0xe0, 0x9e, 0x3e,
    0xcc, 0x4f, 0xca, 0xbe, 0xa2, 0xd0, 0x9e, 0xbe, 0x26, 0x61, 0x55, 0xbe, 0xae,
    0x4e, 0x11, 0x3e, 0xbe, 0x36, 0x52, 0x3e, 0xc8, 0xd5, 0x92, 0xbd, 0x7b, 0x7a,
    0xd8, 0xbe, 0xe2, 0xc8, 0x4b, 0x3e, 0x95, 0x46, 0xa1, 0xbe, 0x6c, 0x9c, 0xaf,
    0xbe, 0x00, 0x56, 0x3c, 0xbd, 0xed, 0x0a, 0xcb, 0xbe, 0x90, 0x73, 0xd2, 0xbe,
    0x93, 0x91, 0x91, 0xbe, 0x44, 0xe8, 0x35, 0xbe, 0x44, 0xcf, 0x52, 0xbe, 0xe2,
    0x1f, 0x23, 0xbe, 0x37, 0x22, 0xac, 0x3e, 0x84, 0xcd, 0x3e, 0x3e, 0x53, 0x6f,
    0x94, 0xbe, 0x40, 0xec, 0x5b, 0x3c, 0xd4, 0x01, 0xc6, 0x3d, 0x45, 0x64, 0x4d,
    0xbe, 0x33, 0x5f, 0xe6, 0xbc, 0x74, 0x57, 0x1b, 0x3e, 0xa7, 0x87, 0x9b, 0x3e,
    0x05, 0x6f, 0xb2, 0xbe, 0xc7, 0x9d, 0x96, 0x3e, 0xde, 0x5c, 0x2e, 0x3e, 0x6b,
    0x6a, 0x07, 0xbf, 0x5d, 0x43, 0xc8, 0x3e, 0x8a, 0x2b, 0x5b, 0x3e, 0xa9, 0x39,
    0xc0, 0xbe, 0x25, 0xfa, 0x84, 0xbe, 0x2b, 0x7b, 0x97, 0xbd, 0xa6, 0xf0, 0x56,
    0x3e, 0xc2, 0x13, 0x74, 0xbe, 0x7d, 0x33, 0x1e, 0x3e, 0x71, 0x4a, 0xce, 0x3e,
    0x13, 0x74, 0x7b, 0x3d, 0x40, 0xe1, 0x6f, 0x3e, 0xd8, 0x94, 0x21, 0x3d, 0xdc,
    0x6e, 0xe9, 0xbe, 0x4a, 0x69, 0x6c, 0x3e, 0x56, 0xff, 0xff, 0xff, 0x04, 0x00,
    0x00, 0x00, 0x40, 0x00, 0x00, 0x00, 0x00, 0xdb, 0x97, 0xbe, 0x6e, 0x2b, 0x29,
    0xbd, 0x40, 0x7a, 0x26, 0xbd, 0x1a, 0x5d, 0x78, 0xbe, 0xb3, 0xb1, 0xba, 0xbe,
    0x1a, 0xf4, 0x12, 0xbe, 0x23, 0x97, 0x52, 0x3e, 0xd3, 0x9a, 0x9f, 0x3e, 0x66,
    0x4e, 0x6e, 0xbe, 0x6b, 0xe4, 0x94, 0x3e, 0xef, 0x79, 0x0f, 0xbf, 0x35, 0x06,
    0xe2, 0x3e, 0x95, 0x32, 0x1b, 0x3f, 0x7c, 0x33, 0xee, 0xbd, 0x32, 0x2c, 0x4f,
    0x3e, 0x22, 0x8f, 0xda, 0xbe, 0xa2, 0xff, 0xff, 0xff, 0x04, 0x00, 0x00, 0x00,
    0x40, 0x00, 0x00, 0x00, 0x00, 0x00, 0x00, 0x00, 0x4c, 0xd2, 0x8b, 0x3f, 0x00,
    0x00, 0x00, 0x00, 0x00, 0x00, 0x00, 0x00, 0x00, 0x00, 0x00, 0x00, 0x00, 0x00,
    0x00, 0x00, 0xa4, 0x6d, 0x9d, 0x3e, 0xbb, 0xc9, 0xc4, 0x3d, 0x00, 0x00, 0x00,
    0x00, 0x03, 0xb2, 0x3c, 0xbd, 0x00, 0x00, 0x00, 0x00, 0xba, 0xed, 0x98, 0xbe,
    0x8e, 0x35, 0x49, 0xbf, 0x00, 0x00, 0x00, 0x00, 0x34, 0xbc, 0x66, 0xbc, 0x00,
    0x00, 0x00, 0x00, 0xee, 0xff, 0xff, 0xff, 0x04, 0x00, 0x00, 0x00, 0x04, 0x00,
    0x00, 0x00, 0x9a, 0xff, 0x27, 0xbe, 0x00, 0x00, 0x06, 0x00, 0x08, 0x00, 0x04,
    0x00, 0x06, 0x00, 0x00, 0x00, 0x04, 0x00, 0x00, 0x00, 0x40, 0x00, 0x00, 0x00,
    0xaf, 0x7a, 0xf7, 0x3e, 0x0b, 0x0e, 0x11, 0x3e, 0x7f, 0xc3, 0x0f, 0xbe, 0x8a,
    0xc5, 0x30, 0x3e, 0x14, 0x6d, 0x35, 0x3f, 0x80, 0x45, 0xa7, 0xbb, 0xe0, 0x75,
    0x0a, 0xbf, 0x14, 0xfb, 0xea, 0x3d, 0x09, 0x46, 0x22, 0xbd, 0x00, 0x00, 0x00,
    0x00, 0x6c, 0xfd, 0x0d, 0xbe, 0x94, 0xa6, 0x03, 0xbe, 0x9b, 0xac, 0x0c, 0x3f,
    0x00, 0x00, 0x00, 0x00, 0x0c, 0x4c, 0x28, 0xbc, 0x70, 0x5f, 0x81, 0xbe, 0x20,
    0xfb, 0xff, 0xff, 0x24, 0xfb, 0xff, 0xff, 0x0f, 0x00, 0x00, 0x00, 0x4d, 0x4c,
    0x49, 0x52, 0x20, 0x43, 0x6f, 0x6e, 0x76, 0x65, 0x72, 0x74, 0x65, 0x64, 0x2e,
    0x00, 0x01, 0x00, 0x00, 0x00, 0x14, 0x00, 0x00, 0x00, 0x00, 0x00, 0x0e, 0x00,
    0x18, 0x00, 0x14, 0x00, 0x10, 0x00, 0x0c, 0x00, 0x08, 0x00, 0x04, 0x00, 0x0e,
    0x00, 0x00, 0x00, 0x14, 0x00, 0x00, 0x00, 0x1c, 0x00, 0x00, 0x00, 0xd8, 0x00,
    0x00, 0x00, 0xdc, 0x00, 0x00, 0x00, 0xe0, 0x00, 0x00, 0x00, 0x04, 0x00, 0x00,
    0x00, 0x6d, 0x61, 0x69, 0x6e, 0x00, 0x00, 0x00, 0x00, 0x03, 0x00, 0x00, 0x00,
    0x80, 0x00, 0x00, 0x00, 0x38, 0x00, 0x00, 0x00, 0x04, 0x00, 0x00, 0x00, 0x9a,
    0xff, 0xff, 0xff, 0x10, 0x00, 0x00, 0x00, 0x00, 0x00, 0x00, 0x08, 0x0c, 0x00,
    0x00, 0x00, 0x10, 0x00, 0x00, 0x00, 0x9c, 0xfb, 0xff, 0xff, 0x01, 0x00, 0x00,
    0x00, 0x09, 0x00, 0x00, 0x00, 0x03, 0x00, 0x00, 0x00, 0x08, 0x00, 0x00, 0x00,
    0x06, 0x00, 0x00, 0x00, 0x02, 0x00, 0x00, 0x00, 0xca, 0xff, 0xff, 0xff, 0x10,
    0x00, 0x00, 0x00, 0x00, 0x00, 0x00, 0x08, 0x10, 0x00, 0x00, 0x00, 0x14, 0x00,
    0x00, 0x00, 0xba, 0xff, 0xff, 0xff, 0x00, 0x00, 0x00, 0x01, 0x01, 0x00, 0x00,
    0x00, 0x08, 0x00, 0x00, 0x00, 0x03, 0x00, 0x00, 0x00, 0x07, 0x00, 0x00, 0x00,
    0x05, 0x00, 0x00, 0x00, 0x01, 0x00, 0x00, 0x00, 0x00, 0x00, 0x0e, 0x00, 0x16,
    0x00, 0x00, 0x00, 0x10, 0x00, 0x0c, 0x00, 0x0b, 0x00, 0x04, 0x00, 0x0e, 0x00,
    0x00, 0x00, 0x18, 0x00, 0x00, 0x00, 0x00, 0x00, 0x00, 0x08, 0x18, 0x00, 0x00,
    0x00, 0x1c, 0x00, 0x00, 0x00, 0x00, 0x00, 0x06, 0x00, 0x08, 0x00, 0x07, 0x00,
    0x06, 0x00, 0x00, 0x00, 0x00, 0x00, 0x00, 0x01, 0x01, 0x00, 0x00, 0x00, 0x07,
    0x00, 0x00, 0x00, 0x03, 0x00, 0x00, 0x00, 0x00, 0x00, 0x00, 0x00, 0x04, 0x00,
    0x00, 0x00, 0x03, 0x00, 0x00, 0x00, 0x01, 0x00, 0x00, 0x00, 0x09, 0x00, 0x00,
    0x00, 0x01, 0x00, 0x00, 0x00, 0x00, 0x00, 0x00, 0x00, 0x0a, 0x00, 0x00, 0x00,
    0x8c, 0x03, 0x00, 0x00, 0x1c, 0x03, 0x00, 0x00, 0xac, 0x02, 0x00, 0x00, 0x58,
    0x02, 0x00, 0x00, 0x10, 0x02, 0x00, 0x00, 0xc4, 0x01, 0x00, 0x00, 0x78, 0x01,
    0x00, 0x00, 0xf0, 0x00, 0x00, 0x00, 0x60, 0x00, 0x00, 0x00, 0x04, 0x00, 0x00,
    0x00, 0xb2, 0xfc, 0xff, 0xff, 0x00, 0x00, 0x00, 0x01, 0x14, 0x00, 0x00, 0x00,
    0x1c, 0x00, 0x00, 0x00, 0x1c, 0x00, 0x00, 0x00, 0x0a, 0x00, 0x00, 0x00, 0x34,
    0x00, 0x00, 0x00, 0x02, 0x00, 0x00, 0x00, 0xff, 0xff, 0xff, 0xff, 0x01, 0x00,
    0x00, 0x00, 0x9c, 0xfc, 0xff, 0xff, 0x19, 0x00, 0x00, 0x00, 0x53, 0x74, 0x61,
    0x74, 0x65, 0x66, 0x75, 0x6c, 0x50, 0x61, 0x72, 0x74, 0x69, 0x74, 0x69, 0x6f,
    0x6e, 0x65, 0x64, 0x43, 0x61, 0x6c, 0x6c, 0x3a, 0x30, 0x00, 0x00, 0x00, 0x02,
    0x00, 0x00, 0x00, 0x01, 0x00, 0x00, 0x00, 0x01, 0x00, 0x00, 0x00, 0x0a, 0xfd,
    0xff, 0xff, 0x00, 0x00, 0x00, 0x01, 0x14, 0x00, 0x00, 0x00, 0x1c, 0x00, 0x00,
    0x00, 0x1c, 0x00, 0x00, 0x00, 0x09, 0x00, 0x00, 0x00, 0x68, 0x00, 0x00, 0x00,
    0x02, 0x00, 0x00, 0x00, 0xff, 0xff, 0xff, 0xff, 0x10, 0x00, 0x00, 0x00, 0xf4,
    0xfc, 0xff, 0xff, 0x4c, 0x00, 0x00, 0x00, 0x73, 0x65, 0x71, 0x75, 0x65, 0x6e,
    0x74, 0x69, 0x61, 0x6c, 0x2f, 0x64, 0x65, 0x6e, 0x73, 0x65, 0x5f, 0x31, 0x2f,
    0x4d, 0x61, 0x74, 0x4d, 0x75, 0x6c, 0x3b, 0x73, 0x65, 0x71, 0x75, 0x65, 0x6e,
    0x74, 0x69, 0x61, 0x6c, 0x2f, 0x64, 0x65, 0x6e, 0x73, 0x65, 0x5f, 0x31, 0x2f,
    0x52, 0x65, 0x6c, 0x75, 0x3b, 0x73, 0x65, 0x71, 0x75, 0x65, 0x6e, 0x74, 0x69,
    0x61, 0x6c, 0x2f, 0x64, 0x65, 0x6e, 0x73, 0x65, 0x5f, 0x31, 0x2f, 0x42, 0x69,
    0x61, 0x73, 0x41, 0x64, 0x64, 0x00, 0x00, 0x00, 0x00, 0x02, 0x00, 0x00, 0x00,
    0x01, 0x00, 0x00, 0x00, 0x10, 0x00, 0x00, 0x00, 0x96, 0xfd, 0xff, 0xff, 0x00,
    0x00, 0x00, 0x01, 0x14, 0x00, 0x00, 0x00, 0x1c, 0x00, 0x00, 0x00, 0x1c, 0x00,
    0x00, 0x00, 0x08, 0x00, 0x00, 0x00, 0x60, 0x00, 0x00, 0x00, 0x02, 0x00, 0x00,
    0x00, 0xff, 0xff, 0xff, 0xff, 0x10, 0x00, 0x00, 0x00, 0x80, 0xfd, 0xff, 0xff,
    0x46, 0x00, 0x00, 0x00, 0x73, 0x65, 0x71, 0x75, 0x65, 0x6e, 0x74, 0x69, 0x61,
    0x6c, 0x2f, 0x64, 0x65, 0x6e, 0x73, 0x65, 0x2f, 0x4d, 0x61, 0x74, 0x4d, 0x75,
    0x6c, 0x3b, 0x73, 0x65, 0x71, 0x75, 0x65, 0x6e, 0x74, 0x69, 0x61, 0x6c, 0x2f,
    0x64, 0x65, 0x6e, 0x73, 0x65, 0x2f, 0x52, 0x65, 0x6c, 0x75, 0x3b, 0x73, 0x65,
    0x71, 0x75, 0x65, 0x6e, 0x74, 0x69, 0x61, 0x6c, 0x2f, 0x64, 0x65, 0x6e, 0x73,
    0x65, 0x2f, 0x42, 0x69, 0x61, 0x73, 0x41, 0x64, 0x64, 0x00, 0x00, 0x02, 0x00,
    0x00, 0x00, 0x01, 0x00, 0x00, 0x00, 0x10, 0x00, 0x00, 0x00, 0x86, 0xfe, 0xff,
    0xff, 0x00, 0x00, 0x00, 0x01, 0x10, 0x00, 0x00, 0x00, 0x10, 0x00, 0x00, 0x00,
    0x07, 0x00, 0x00, 0x00, 0x28, 0x00, 0x00, 0x00, 0xf4, 0xfd, 0xff, 0xff, 0x19,
    0x00, 0x00, 0x00, 0x73, 0x65, 0x71, 0x75, 0x65, 0x6e, 0x74, 0x69, 0x61, 0x6c,
    0x2f, 0x64, 0x65, 0x6e, 0x73, 0x65, 0x5f, 0x32, 0x2f, 0x4d, 0x61, 0x74, 0x4d,
    0x75, 0x6c, 0x00, 0x00, 0x00, 0x02, 0x00, 0x00, 0x00, 0x01, 0x00, 0x00, 0x00,
    0x10, 0x00, 0x00, 0x00, 0xce, 0xfe, 0xff, 0xff, 0x00, 0x00, 0x00, 0x01, 0x10,
    0x00, 0x00, 0x00, 0x10, 0x00, 0x00, 0x00, 0x06, 0x00, 0x00, 0x00, 0x28, 0x00,
    0x00, 0x00, 0x3c, 0xfe, 0xff, 0xff, 0x19, 0x00, 0x00, 0x00, 0x73, 0x65, 0x71,
    0x75, 0x65, 0x6e, 0x74, 0x69, 0x61, 0x6c, 0x2f, 0x64, 0x65, 0x6e, 0x73, 0x65,
    0x5f, 0x31, 0x2f, 0x4d, 0x61, 0x74, 0x4d, 0x75, 0x6c, 0x00, 0x00, 0x00, 0x02,
    0x00, 0x00, 0x00, 0x10, 0x00, 0x00, 0x00, 0x10, 0x00, 0x00, 0x00, 0x16, 0xff,
    0xff, 0xff, 0x00, 0x00, 0x00, 0x01, 0x10, 0x00, 0x00, 0x00, 0x10, 0x00, 0x00,
    0x00, 0x05, 0x00, 0x00, 0x00, 0x24, 0x00, 0x00, 0x00, 0x84, 0xfe, 0xff, 0xff,
    0x17, 0x00, 0x00, 0x00, 0x73, 0x65, 0x71, 0x75, 0x65, 0x6e, 0x74, 0x69, 0x61,
    0x6c, 0x2f, 0x64, 0x65, 0x6e, 0x73, 0x65, 0x2f, 0x4d, 0x61, 0x74, 0x4d, 0x75,
    0x6c, 0x00, 0x02, 0x00, 0x00, 0x00, 0x10, 0x00, 0x00, 0x00, 0x01, 0x00, 0x00,
    0x00, 0x5a, 0xff, 0xff, 0xff, 0x00, 0x00, 0x00, 0x01, 0x10, 0x00, 0x00, 0x00,
    0x10, 0x00, 0x00, 0x00, 0x04, 0x00, 0x00, 0x00, 0x34, 0x00, 0x00, 0x00, 0xc8,
    0xfe, 0xff, 0xff, 0x27, 0x00, 0x00, 0x00, 0x73, 0x65, 0x71, 0x75, 0x65, 0x6e,
    0x74, 0x69, 0x61, 0x6c, 0x2f, 0x64, 0x65, 0x6e, 0x73, 0x65, 0x2f, 0x42, 0x69,
    0x61, 0x73, 0x41, 0x64, 0x64, 0x2f, 0x52, 0x65, 0x61, 0x64, 0x56, 0x61, 0x72,
    0x69, 0x61, 0x62, 0x6c, 0x65, 0x4f, 0x70, 0x00, 0x01, 0x00, 0x00, 0x00, 0x10,
    0x00, 0x00, 0x00, 0xaa, 0xff, 0xff, 0xff, 0x00, 0x00, 0x00, 0x01, 0x10, 0x00,
    0x00, 0x00, 0x10, 0x00, 0x00, 0x00, 0x03, 0x00, 0x00, 0x00, 0x38, 0x00, 0x00,
    0x00, 0x18, 0xff, 0xff, 0xff, 0x29, 0x00, 0x00, 0x00, 0x73, 0x65, 0x71, 0x75,
    0x65, 0x6e, 0x74, 0x69, 0x61, 0x6c, 0x2f, 0x64, 0x65, 0x6e, 0x73, 0x65, 0x5f,
    0x32, 0x2f, 0x42, 0x69, 0x61, 0x73, 0x41, 0x64, 0x64, 0x2f, 0x52, 0x65, 0x61,
    0x64, 0x56, 0x61, 0x72, 0x69, 0x61, 0x62, 0x6c, 0x65, 0x4f, 0x70, 0x00, 0x00,
    0x00, 0x01, 0x00, 0x00, 0x00, 0x01, 0x00, 0x00, 0x00, 0x00, 0x00, 0x16, 0x00,
    0x18, 0x00, 0x14, 0x00, 0x00, 0x00, 0x10, 0x00, 0x0c, 0x00, 0x08, 0x00, 0x00,
    0x00, 0x00, 0x00, 0x00, 0x00, 0x07, 0x00, 0x16, 0x00, 0x00, 0x00, 0x00, 0x00,
    0x00, 0x01, 0x10, 0x00, 0x00, 0x00, 0x10, 0x00, 0x00, 0x00, 0x02, 0x00, 0x00,
    0x00, 0x38, 0x00, 0x00, 0x00, 0x84, 0xff, 0xff, 0xff, 0x29, 0x00, 0x00, 0x00,
    0x73, 0x65, 0x71, 0x75, 0x65, 0x6e, 0x74, 0x69, 0x61, 0x6c, 0x2f, 0x64, 0x65,
    0x6e, 0x73, 0x65, 0x5f, 0x31, 0x2f, 0x42, 0x69, 0x61, 0x73, 0x41, 0x64, 0x64,
    0x2f, 0x52, 0x65, 0x61, 0x64, 0x56, 0x61, 0x72, 0x69, 0x61, 0x62, 0x6c, 0x65,
    0x4f, 0x70, 0x00, 0x00, 0x00, 0x01, 0x00, 0x00, 0x00, 0x10, 0x00, 0x00, 0x00,
    0x00, 0x00, 0x16, 0x00, 0x1c, 0x00, 0x18, 0x00, 0x00, 0x00, 0x14, 0x00, 0x10,
    0x00, 0x0c, 0x00, 0x00, 0x00, 0x00, 0x00, 0x08, 0x00, 0x07, 0x00, 0x16, 0x00,
    0x00, 0x00, 0x00, 0x00, 0x00, 0x01, 0x14, 0x00, 0x00, 0x00, 0x20, 0x00, 0x00,
    0x00, 0x20, 0x00, 0x00, 0x00, 0x01, 0x00, 0x00, 0x00, 0x3c, 0x00, 0x00, 0x00,
    0x02, 0x00, 0x00, 0x00, 0xff, 0xff, 0xff, 0xff, 0x01, 0x00, 0x00, 0x00, 0x04,
    0x00, 0x04, 0x00, 0x04, 0x00, 0x00, 0x00, 0x1d, 0x00, 0x00, 0x00, 0x73, 0x65,
    0x72, 0x76, 0x69, 0x6e, 0x67, 0x5f, 0x64, 0x65, 0x66, 0x61, 0x75, 0x6c, 0x74,
    0x5f, 0x64, 0x65, 0x6e, 0x73, 0x65, 0x5f, 0x69, 0x6e, 0x70, 0x75, 0x74, 0x3a,
    0x30, 0x00, 0x00, 0x00, 0x02, 0x00, 0x00, 0x00, 0x01, 0x00, 0x00, 0x00, 0x01,
    0x00, 0x00, 0x00, 0x01, 0x00, 0x00, 0x00, 0x10, 0x00, 0x00, 0x00, 0x0c, 0x00,
    0x0c, 0x00, 0x0b, 0x00, 0x00, 0x00, 0x00, 0x00, 0x04, 0x00, 0x0c, 0x00, 0x00,
    0x00, 0x09, 0x00, 0x00, 0x00, 0x00, 0x00, 0x00, 0x09,
};
const int sine_model_len = 3168;
